#ifndef SINE_MODEL_H
#define SINE_MODEL_H


unsigned int sine_model_len = 3152;
unsigned char sine_model[] = {
 0x1c, 0x00, 0x00, 0x00, 0x54, 0x46, 0x4c, 0x33, 0x14, 0x00, 0x20, 0x00,
  0x1c, 0x00, 0x18, 0x00, 0x14, 0x00, 0x10, 0x00, 0x0c, 0x00, 0x00, 0x00,
  0x08, 0x00, 0x04, 0x00, 0x14, 0x00, 0x00, 0x00, 0x1c, 0x00, 0x00, 0x00,
  0x98, 0x00, 0x00, 0x00, 0xf0, 0x00, 0x00, 0x00, 0x14, 0x07, 0x00, 0x00,
  0x24, 0x07, 0x00, 0x00, 0xfc, 0x0b, 0x00, 0x00, 0x03, 0x00, 0x00, 0x00,
  0x01, 0x00, 0x00, 0x00, 0x10, 0x00, 0x00, 0x00, 0x00, 0x00, 0x0a, 0x00,
  0x10, 0x00, 0x0c, 0x00, 0x08, 0x00, 0x04, 0x00, 0x0a, 0x00, 0x00, 0x00,
  0x0c, 0x00, 0x00, 0x00, 0x1c, 0x00, 0x00, 0x00, 0x3c, 0x00, 0x00, 0x00,
  0x0f, 0x00, 0x00, 0x00, 0x73, 0x65, 0x72, 0x76, 0x69, 0x6e, 0x67, 0x5f,
  0x64, 0x65, 0x66, 0x61, 0x75, 0x6c, 0x74, 0x00, 0x01, 0x00, 0x00, 0x00,
  0x04, 0x00, 0x00, 0x00, 0x90, 0xff, 0xff, 0xff, 0x09, 0x00, 0x00, 0x00,
  0x04, 0x00, 0x00, 0x00, 0x08, 0x00, 0x00, 0x00, 0x6f, 0x75, 0x74, 0x70,
  0x75, 0x74, 0x5f, 0x30, 0x00, 0x00, 0x00, 0x00, 0x01, 0x00, 0x00, 0x00,
  0x04, 0x00, 0x00, 0x00, 0xba, 0xf9, 0xff, 0xff, 0x04, 0x00, 0x00, 0x00,
  0x0c, 0x00, 0x00, 0x00, 0x6b, 0x65, 0x72, 0x61, 0x73, 0x5f, 0x74, 0x65,
  0x6e, 0x73, 0x6f, 0x72, 0x00, 0x00, 0x00, 0x00, 0x02, 0x00, 0x00, 0x00,
  0x34, 0x00, 0x00, 0x00, 0x04, 0x00, 0x00, 0x00, 0xdc, 0xff, 0xff, 0xff,
  0x0c, 0x00, 0x00, 0x00, 0x04, 0x00, 0x00, 0x00, 0x13, 0x00, 0x00, 0x00,
  0x43, 0x4f, 0x4e, 0x56, 0x45, 0x52, 0x53, 0x49, 0x4f, 0x4e, 0x5f, 0x4d,
  0x45, 0x54, 0x41, 0x44, 0x41, 0x54, 0x41, 0x00, 0x08, 0x00, 0x0c, 0x00,
  0x08, 0x00, 0x04, 0x00, 0x08, 0x00, 0x00, 0x00, 0x0b, 0x00, 0x00, 0x00,
  0x04, 0x00, 0x00, 0x00, 0x13, 0x00, 0x00, 0x00, 0x6d, 0x69, 0x6e, 0x5f,
  0x72, 0x75, 0x6e, 0x74, 0x69, 0x6d, 0x65, 0x5f, 0x76, 0x65, 0x72, 0x73,
  0x69, 0x6f, 0x6e, 0x00, 0x0d, 0x00, 0x00, 0x00, 0x20, 0x06, 0x00, 0x00,
  0x18, 0x06, 0x00, 0x00, 0xc8, 0x05, 0x00, 0x00, 0xb0, 0x01, 0x00, 0x00,
  0x9c, 0x01, 0x00, 0x00, 0x4c, 0x01, 0x00, 0x00, 0xfc, 0x00, 0x00, 0x00,
  0xac, 0x00, 0x00, 0x00, 0xa4, 0x00, 0x00, 0x00, 0x9c, 0x00, 0x00, 0x00,
  0x94, 0x00, 0x00, 0x00, 0x74, 0x00, 0x00, 0x00, 0x04, 0x00, 0x00, 0x00,
  0x6a, 0xfa, 0xff, 0xff, 0x04, 0x00, 0x00, 0x00, 0x60, 0x00, 0x00, 0x00,
  0x0c, 0x00, 0x00, 0x00, 0x08, 0x00, 0x0e, 0x00, 0x08, 0x00, 0x04, 0x00,
  0x08, 0x00, 0x00, 0x00, 0x10, 0x00, 0x00, 0x00, 0x28, 0x00, 0x00, 0x00,
  0x00, 0x00, 0x06, 0x00, 0x08, 0x00, 0x04, 0x00, 0x06, 0x00, 0x00, 0x00,
  0x04, 0x00, 0x00, 0x00, 0x01, 0x00, 0x00, 0x00, 0xea, 0x03, 0x00, 0x00,
  0x0c, 0x00, 0x18, 0x00, 0x14, 0x00, 0x10, 0x00, 0x0c, 0x00, 0x04, 0x00,
  0x0c, 0x00, 0x00, 0x00, 0x81, 0x73, 0x35, 0xf5, 0x27, 0x00, 0xc7, 0x45,
  0x02, 0x00, 0x00, 0x00, 0x02, 0x00, 0x00, 0x00, 0x04, 0x00, 0x00, 0x00,
  0x06, 0x00, 0x00, 0x00, 0x32, 0x2e, 0x31, 0x37, 0x2e, 0x30, 0x00, 0x00,
  0xd6, 0xfa, 0xff, 0xff, 0x04, 0x00, 0x00, 0x00, 0x10, 0x00, 0x00, 0x00,
  0x31, 0x2e, 0x35, 0x2e, 0x30, 0x00, 0x00, 0x00, 0x00, 0x00, 0x00, 0x00,
  0x00, 0x00, 0x00, 0x00, 0xe0, 0xf5, 0xff, 0xff, 0xe4, 0xf5, 0xff, 0xff,
  0xe8, 0xf5, 0xff, 0xff, 0xfe, 0xfa, 0xff, 0xff, 0x04, 0x00, 0x00, 0x00,
  0x40, 0x00, 0x00, 0x00, 0x42, 0x04, 0xfa, 0x3e, 0xc3, 0xe6, 0xb2, 0x3e,
  0x9b, 0x36, 0x9c, 0xbe, 0x7d, 0x24, 0xdd, 0x3e, 0x2d, 0xc5, 0x6e, 0x3e,
  0x72, 0x80, 0x0b, 0x3f, 0x6a, 0xe5, 0x67, 0xbe, 0xf2, 0xdd, 0x03, 0x3f,
  0x5a, 0x7f, 0x00, 0xbf, 0xe0, 0x5c, 0xe7, 0xbc, 0xf3, 0x1b, 0x51, 0x3e,
  0xe4, 0x6d, 0x05, 0xbf, 0x27, 0x9a, 0x01, 0x3d, 0x00, 0x4e, 0xcb, 0xbe,
  0x1b, 0xa0, 0x8c, 0x3e, 0x48, 0xe7, 0xc4, 0xbe, 0x4a, 0xfb, 0xff, 0xff,
  0x04, 0x00, 0x00, 0x00, 0x40, 0x00, 0x00, 0x00, 0xe5, 0x27, 0x90, 0xbb,
  0xaa, 0x04, 0x8f, 0x3e, 0x00, 0x00, 0x00, 0x00, 0xaf, 0x9d, 0xcc, 0xbe,
  0x14, 0x35, 0xa4, 0x3d, 0x3a, 0x05, 0x8c, 0xbb, 0x00, 0x00, 0x00, 0x00,
  0x3d, 0xad, 0x4a, 0xbd, 0x00, 0x00, 0x00, 0x00, 0x00, 0x00, 0x00, 0x00,
  0x6c, 0xde, 0x9c, 0xbe, 0x00, 0x00, 0x00, 0x00, 0xc7, 0x03, 0xb0, 0x3e,
  0x00, 0x00, 0x00, 0x00, 0x7f, 0xb5, 0x97, 0xbe, 0x00, 0x00, 0x00, 0x00,
  0x96, 0xfb, 0xff, 0xff, 0x04, 0x00, 0x00, 0x00, 0x40, 0x00, 0x00, 0x00,
  0xf7, 0xad, 0xba, 0xbe, 0x00, 0x00, 0x00, 0x00, 0x86, 0x1e, 0x4f, 0xbb,
  0xce, 0xae, 0x3f, 0xbd, 0x00, 0x00, 0x00, 0x00, 0xe0, 0xb4, 0xb0, 0xbe,
  0x00, 0x00, 0x00, 0x00, 0xac, 0x01, 0x46, 0x3e, 0x09, 0x4d, 0x4c, 0xbb,
  0xd5, 0xb7, 0x42, 0x3e, 0x76, 0xa5, 0x90, 0xbe, 0xcb, 0xd7, 0x43, 0x3e,
  0x00, 0x00, 0x00, 0x00, 0xbe, 0x78, 0x0e, 0x3f, 0xc5, 0x5a, 0xbf, 0xbe,
  0x00, 0x00, 0x00, 0x00, 0xe2, 0xfb, 0xff, 0xff, 0x04, 0x00, 0x00, 0x00,
  0x04, 0x00, 0x00, 0x00, 0xdd, 0x7a, 0x44, 0x3e, 0xf2, 0xfb, 0xff, 0xff,
  0x04, 0x00, 0x00, 0x00, 0x00, 0x04, 0x00, 0x00, 0x15, 0xe3, 0xfe, 0x3e,
  0x4e, 0x82, 0x85, 0x3d, 0x9c, 0x9b, 0x93, 0xbe, 0x3d, 0xcc, 0x43, 0xbe,
  0x0d, 0x95, 0x6c, 0xbe, 0xfb, 0x67, 0xc0, 0x3e, 0x87, 0x3e, 0x8b, 0x3e,
  0xff, 0x7b, 0xe4, 0xbd, 0xaf, 0x46, 0xaf, 0x3e, 0xb3, 0xe4, 0x94, 0x3e,
  0x6e, 0xf0, 0xe5, 0x3d, 0x0e, 0xf6, 0x75, 0xbe, 0xe2, 0x92, 0xa8, 0xbe,
  0xdc, 0x7b, 0x03, 0xbe, 0x7b, 0x73, 0xfa, 0x3c, 0x3e, 0x95, 0x0b, 0x3e,
  0xec, 0xa8, 0xd8, 0x3d, 0x6a, 0xbb, 0xbd, 0xbe, 0xcb, 0xf3, 0xa4, 0x3e,
  0x0d, 0x76, 0x99, 0x3e, 0x51, 0x67, 0x52, 0xbe, 0x28, 0x1a, 0x47, 0xbd,
  0x3e, 0x8f, 0x1a, 0x3e, 0x31, 0x2d, 0xc9, 0xbe, 0xf0, 0xf3, 0x81, 0xbc,
  0x90, 0x34, 0x02, 0xbd, 0x75, 0x7c, 0x58, 0xbe, 0xf4, 0x6f, 0xa5, 0x3d,
  0xa8, 0xf1, 0x35, 0xbd, 0x1a, 0xab, 0x3c, 0xbe, 0xe8, 0x3e, 0x04, 0xbe,
  0x1e, 0x2d, 0x6e, 0x3e, 0xd9, 0xdb, 0x84, 0x3e, 0x8d, 0x19, 0x19, 0xbe,
  0x43, 0xb0, 0xb5, 0x3e, 0xde, 0xe9, 0x53, 0x3e, 0x6c, 0x8e, 0x67, 0x3e,
  0xce, 0xae, 0xda, 0xbe, 0x44, 0x91, 0xdd, 0x3d, 0xa8, 0xb4, 0xe7, 0xbc,
  0x54, 0xee, 0x63, 0xbe, 0x10, 0x00, 0x12, 0xbe, 0xe4, 0xd3, 0x82, 0xbd,
  0xc2, 0x0c, 0x32, 0xbe, 0x6a, 0xdb, 0x73, 0xbe, 0xb0, 0xb9, 0xa5, 0xbc,
  0xf7, 0x17, 0x25, 0x3e, 0x83, 0x09, 0xb7, 0x3e, 0x85, 0x6d, 0xbc, 0xbe,
  0xda, 0x04, 0x97, 0xbe, 0x6d, 0x0c, 0xb6, 0xbe, 0xb7, 0x72, 0xac, 0x3e,
  0x41, 0xcf, 0xa8, 0x3e, 0xe3, 0x7f, 0x72, 0xbe, 0xe0, 0xd6, 0xca, 0xbd,
  0x93, 0x26, 0x49, 0xbe, 0x2c, 0x21, 0x97, 0xbe, 0x95, 0xf2, 0x8e, 0x3e,
  0xf1, 0x9b, 0xd8, 0x3e, 0xc9, 0xe6, 0xc3, 0xbe, 0x69, 0x70, 0x88, 0x3e,
  0x1e, 0x0e, 0x42, 0x3e, 0xf6, 0xcf, 0x9a, 0xbe, 0x10, 0x93, 0x59, 0x3d,
  0xd0, 0x0b, 0x56, 0x3d, 0x41, 0x9b, 0xac, 0xbe, 0x87, 0x92, 0xce, 0xbe,
  0x48, 0x83, 0x47, 0xbe, 0x3e, 0xb7, 0x19, 0x3e, 0x71, 0x16, 0xc9, 0x3e,
  0x2a, 0xa2, 0x20, 0x3e, 0xdc, 0xc6, 0x78, 0xbe, 0x1b, 0xa8, 0xc8, 0xbe,
  0xff, 0x37, 0xd8, 0x3e, 0xe5, 0xbc, 0x95, 0xbe, 0x3a, 0xb0, 0x61, 0x3e,
  0x7e, 0x76, 0x49, 0xbe, 0x52, 0x66, 0xd3, 0xbe, 0x84, 0x99, 0x8c, 0xbe,
  0xd5, 0xd8, 0xb3, 0xbe, 0x87, 0x3c, 0x44, 0x3e, 0x19, 0xe6, 0x09, 0x3d,
  0xfc, 0xdf, 0xdb, 0xbe, 0xea, 0x45, 0xa0, 0xbc, 0xd1, 0xfb, 0x3f, 0x3d,
  0x70, 0xc3, 0xd2, 0x3e, 0x3a, 0xfb, 0x3a, 0x3e, 0xb8, 0xda, 0xc8, 0x3e,
  0xf8, 0x0f, 0xbb, 0xbe, 0x80, 0x56, 0x39, 0xbe, 0x53, 0xd0, 0x4b, 0x3e,
  0xf7, 0xed, 0xbc, 0x3e, 0x91, 0xa6, 0x24, 0xbd, 0x8b, 0xd1, 0xc3, 0xbe,
  0x53, 0x7c, 0x81, 0xbe, 0x80, 0xbd, 0xc4, 0xbb, 0xd4, 0x47, 0x9c, 0xbe,
  0xb8, 0xd0, 0xaa, 0xbe, 0x53, 0x13, 0x97, 0x3e, 0x5c, 0xc6, 0xec, 0x3d,
  0x51, 0xbe, 0xc4, 0xbe, 0x18, 0xb8, 0x4c, 0xbe, 0xa0, 0xcd, 0x5b, 0x3c,
  0xdb, 0xbc, 0x3c, 0xbe, 0x7a, 0xc2, 0x30, 0x3e, 0x5d, 0x3d, 0x9b, 0x3e,
  0x80, 0xb7, 0xc2, 0xbd, 0x1f, 0x5f, 0xaa, 0x3e, 0x80, 0x41, 0xd3, 0x3b,
  0x83, 0xa2, 0xa0, 0xbe, 0xec, 0xbc, 0x94, 0x3d, 0xb9, 0xbf, 0x9f, 0x3e,
  0xe1, 0xfc, 0xa8, 0x3e, 0xe4, 0x7d, 0xec, 0x3e, 0x28, 0x44, 0x66, 0xbe,
  0x0d, 0x7b, 0x9c, 0xbe, 0x5b, 0xc4, 0x57, 0xbc, 0x5d, 0x8b, 0xee, 0xbd,
  0x80, 0x35, 0x80, 0xbd, 0xf6, 0x50, 0x17, 0x3e, 0x62, 0x34, 0x79, 0xbe,
  0x38, 0x30, 0xd8, 0xbd, 0x04, 0x3b, 0x14, 0xbf, 0xcf, 0x98, 0x7d, 0xbe,
  0x54, 0xff, 0x01, 0x3f, 0x3b, 0x47, 0x9e, 0xbe, 0xa1, 0xd9, 0x81, 0xbe,
  0xc3, 0xa1, 0xb6, 0xbe, 0x98, 0x9b, 0xd1, 0xbe, 0xf7, 0x2a, 0xdd, 0xbe,
  0x30, 0x85, 0xcb, 0xbc, 0x52, 0x6b, 0x07, 0xbe, 0xa6, 0x06, 0x0d, 0xbe,
  0x81, 0x1a, 0x8d, 0x3e, 0x04, 0xb4, 0xb6, 0x3d, 0x87, 0xcc, 0xa6, 0x3e,
  0xb8, 0x22, 0x32, 0x3d, 0xe5, 0x98, 0x9b, 0x3e, 0x7e, 0xdf, 0xfb, 0xbd,
  0xe4, 0x7f, 0x8a, 0xbd, 0x72, 0xc6, 0x98, 0xbe, 0xdc, 0xd1, 0x8e, 0x3d,
  0x55, 0xae, 0xcb, 0xbe, 0x6a, 0x98, 0x2b, 0x3e, 0xaa, 0x27, 0x2f, 0x3b,
  0x4f, 0x64, 0xbf, 0x3c, 0x0c, 0xaf, 0xfe, 0xbd, 0x44, 0x83, 0x4e, 0xbc,
  0xd4, 0x0b, 0xc5, 0xbe, 0x0a, 0x32, 0x55, 0x3e, 0x28, 0x07, 0xa2, 0xbd,
  0xf8, 0xef, 0x17, 0x3e, 0xa2, 0x62, 0x58, 0x3e, 0xc2, 0xf2, 0x5d, 0x3e,
  0x96, 0xad, 0xc9, 0xbd, 0x6e, 0x53, 0x83, 0xbe, 0x2f, 0x28, 0xa4, 0xbc,
  0xe4, 0x90, 0xd2, 0x3d, 0xaf, 0x06, 0x8e, 0xbe, 0xac, 0xd4, 0xc7, 0x3d,
  0x96, 0xf9, 0x5c, 0x3d, 0x55, 0x63, 0x08, 0xbe, 0xb3, 0x05, 0x91, 0x3e,
  0x17, 0x4e, 0xb9, 0x3d, 0xcc, 0xc5, 0xe0, 0x3d, 0xe4, 0x5d, 0x7f, 0xbc,
  0x00, 0xeb, 0xe4, 0x3b, 0x7d, 0x77, 0xa8, 0x3e, 0x2e, 0xd2, 0x60, 0x3e,
  0xd3, 0x37, 0xb4, 0x3e, 0xbb, 0x13, 0x12, 0xbd, 0xd8, 0x98, 0xf8, 0xbd,
  0x75, 0x3d, 0x87, 0x3b, 0x8e, 0x9c, 0x65, 0xbe, 0x9d, 0x78, 0x00, 0x3f,
  0xc4, 0x93, 0x4d, 0xbe, 0x50, 0xd6, 0x15, 0xbd, 0xe2, 0x05, 0x71, 0xbe,
  0x39, 0xef, 0x9e, 0x3e, 0x20, 0x66, 0xd2, 0xbc, 0x18, 0xe1, 0x9f, 0x3e,
  0xa5, 0x3c, 0xa2, 0x3e, 0x6c, 0x99, 0xf1, 0x3d, 0xb1, 0x00, 0x6c, 0xbe,
  0x4a, 0x4b, 0x5a, 0x3e, 0x1d, 0x6a, 0xb8, 0x3e, 0x32, 0xe9, 0xc3, 0xbc,
  0x31, 0x65, 0x8c, 0x3e, 0x57, 0x3e, 0x40, 0x3e, 0x16, 0xf3, 0x02, 0x3e,
  0x0f, 0x4b, 0x5d, 0x3e, 0xb1, 0xc4, 0x96, 0x3e, 0xb3, 0xe7, 0x90, 0x3e,
  0x30, 0x0e, 0x72, 0xbd, 0xb3, 0xac, 0x7a, 0xbe, 0xf8, 0x2d, 0x25, 0xbd,
  0x0c, 0x86, 0x26, 0xbe, 0xd0, 0x9d, 0x6a, 0xbe, 0xba, 0xa5, 0xa4, 0xbe,
  0xf0, 0x83, 0x03, 0x3d, 0xb2, 0xe2, 0x7f, 0x3e, 0xcd, 0xb1, 0xa2, 0xbe,
  0x91, 0x02, 0x9a, 0x3e, 0x43, 0xc1, 0x94, 0x3e, 0x80, 0xa6, 0x1d, 0x3d,
  0xe3, 0x2a, 0xd3, 0x3e, 0x8f, 0xac, 0xda, 0xbe, 0x20, 0xbf, 0x2c, 0xbe,
  0x37, 0x77, 0x5d, 0xbf, 0x62, 0xc2, 0x54, 0x3e, 0x5c, 0x00, 0x53, 0xbe,
  0xca, 0x46, 0x48, 0x3d, 0x0a, 0xf3, 0x97, 0xbd, 0x89, 0xec, 0x70, 0xbe,
  0x20, 0x5f, 0x86, 0xbe, 0x18, 0x5f, 0x20, 0xbf, 0x12, 0x53, 0x2e, 0xbe,
  0xba, 0xe7, 0x42, 0xbe, 0x64, 0x90, 0x92, 0x3d, 0x03, 0xf7, 0xb9, 0xbe,
  0x90, 0x4f, 0x4b, 0x3f, 0xca, 0x30, 0x2a, 0xbe, 0x29, 0x7d, 0x33, 0xbd,
  0x70, 0x4e, 0x2a, 0x3d, 0xb6, 0xe8, 0xac, 0x3e, 0xeb, 0xff, 0xb4, 0xbe,
  0x0c, 0xbd, 0x0b, 0xbe, 0x32, 0x96, 0x91, 0x3e, 0x58, 0xf5, 0x43, 0x3e,
  0x0a, 0x88, 0x95, 0xbd, 0x08, 0x9a, 0x44, 0x3d, 0x25, 0xe7, 0xd5, 0x3e,
  0x29, 0x11, 0xa6, 0x3e, 0x81, 0x76, 0xad, 0x3e, 0x00, 0x32, 0xce, 0x3e,
  0xc6, 0x33, 0x70, 0x3e, 0x3a, 0x0c, 0xf0, 0x3a, 0x10, 0xd5, 0xdc, 0xbc,
  0xac, 0x4e, 0x2d, 0x3e, 0x21, 0xe6, 0x98, 0xbe, 0xf7, 0xa3, 0x96, 0x3e,
  0x60, 0x6c, 0xc0, 0xbc, 0x54, 0x9d, 0x04, 0xbe, 0xc5, 0xbc, 0x40, 0xbe,
  0x20, 0x24, 0x0f, 0xbc, 0xb7, 0x36, 0xd8, 0xbe, 0x80, 0x55, 0x8f, 0xbc,
  0xc0, 0x4e, 0x64, 0xbc, 0x60, 0x57, 0x6d, 0x3d, 0x20, 0x3a, 0xe2, 0x3c,
  0x24, 0xc6, 0x95, 0xbd, 0xea, 0xa9, 0x4c, 0x3e, 0x70, 0xbf, 0xb5, 0xbd,
  0xcb, 0xef, 0xa3, 0xbe, 0x48, 0x8c, 0x81, 0xbd, 0x6d, 0xbb, 0xbf, 0x3e,
  0x00, 0x00, 0x06, 0x00, 0x08, 0x00, 0x04, 0x00, 0x06, 0x00, 0x00, 0x00,
  0x04, 0x00, 0x00, 0x00, 0x40, 0x00, 0x00, 0x00, 0x55, 0x4a, 0x01, 0xbf,
  0x54, 0x1c, 0x39, 0x3e, 0x61, 0x6f, 0x93, 0x3e, 0xff, 0x45, 0x82, 0x3e,
  0x98, 0xb4, 0xb0, 0xbe, 0x36, 0x5c, 0x88, 0xbe, 0x88, 0x0f, 0x8d, 0xbd,
  0x4c, 0xf2, 0x38, 0x3f, 0xa4, 0x48, 0x16, 0x3f, 0xee, 0x53, 0x32, 0x3e,
  0x97, 0x3d, 0x09, 0xbf, 0x7f, 0xbd, 0x1d, 0x3f, 0x8e, 0x8e, 0x09, 0xbf,
  0x5f, 0x6f, 0x42, 0xbf, 0x76, 0xbc, 0x67, 0xbe, 0xa8, 0x5d, 0xeb, 0xbd,
  0x40, 0xfb, 0xff, 0xff, 0x44, 0xfb, 0xff, 0xff, 0x0f, 0x00, 0x00, 0x00,
  0x4d, 0x4c, 0x49, 0x52, 0x20, 0x43, 0x6f, 0x6e, 0x76, 0x65, 0x72, 0x74,
  0x65, 0x64, 0x2e, 0x00, 0x01, 0x00, 0x00, 0x00, 0x14, 0x00, 0x00, 0x00,
  0x00, 0x00, 0x0e, 0x00, 0x18, 0x00, 0x14, 0x00, 0x10, 0x00, 0x0c, 0x00,
  0x08, 0x00, 0x04, 0x00, 0x0e, 0x00, 0x00, 0x00, 0x14, 0x00, 0x00, 0x00,
  0x1c, 0x00, 0x00, 0x00, 0xd8, 0x00, 0x00, 0x00, 0xdc, 0x00, 0x00, 0x00,
  0xe0, 0x00, 0x00, 0x00, 0x04, 0x00, 0x00, 0x00, 0x6d, 0x61, 0x69, 0x6e,
  0x00, 0x00, 0x00, 0x00, 0x03, 0x00, 0x00, 0x00, 0x80, 0x00, 0x00, 0x00,
  0x38, 0x00, 0x00, 0x00, 0x04, 0x00, 0x00, 0x00, 0x9a, 0xff, 0xff, 0xff,
  0x10, 0x00, 0x00, 0x00, 0x00, 0x00, 0x00, 0x08, 0x0c, 0x00, 0x00, 0x00,
  0x10, 0x00, 0x00, 0x00, 0xbc, 0xfb, 0xff, 0xff, 0x01, 0x00, 0x00, 0x00,
  0x09, 0x00, 0x00, 0x00, 0x03, 0x00, 0x00, 0x00, 0x08, 0x00, 0x00, 0x00,
  0x01, 0x00, 0x00, 0x00, 0x03, 0x00, 0x00, 0x00, 0xca, 0xff, 0xff, 0xff,
  0x10, 0x00, 0x00, 0x00, 0x00, 0x00, 0x00, 0x08, 0x10, 0x00, 0x00, 0x00,
  0x14, 0x00, 0x00, 0x00, 0xba, 0xff, 0xff, 0xff, 0x00, 0x00, 0x00, 0x01,
  0x01, 0x00, 0x00, 0x00, 0x08, 0x00, 0x00, 0x00, 0x03, 0x00, 0x00, 0x00,
  0x07, 0x00, 0x00, 0x00, 0x02, 0x00, 0x00, 0x00, 0x04, 0x00, 0x00, 0x00,
  0x00, 0x00, 0x0e, 0x00, 0x16, 0x00, 0x00, 0x00, 0x10, 0x00, 0x0c, 0x00,
  0x0b, 0x00, 0x04, 0x00, 0x0e, 0x00, 0x00, 0x00, 0x18, 0x00, 0x00, 0x00,
  0x00, 0x00, 0x00, 0x08, 0x18, 0x00, 0x00, 0x00, 0x1c, 0x00, 0x00, 0x00,
  0x00, 0x00, 0x06, 0x00, 0x08, 0x00, 0x07, 0x00, 0x06, 0x00, 0x00, 0x00,
  0x00, 0x00, 0x00, 0x01, 0x01, 0x00, 0x00, 0x00, 0x07, 0x00, 0x00, 0x00,
  0x03, 0x00, 0x00, 0x00, 0x00, 0x00, 0x00, 0x00, 0x06, 0x00, 0x00, 0x00,
  0x05, 0x00, 0x00, 0x00, 0x01, 0x00, 0x00, 0x00, 0x09, 0x00, 0x00, 0x00,
  0x01, 0x00, 0x00, 0x00, 0x00, 0x00, 0x00, 0x00, 0x0a, 0x00, 0x00, 0x00,
  0x6c, 0x03, 0x00, 0x00, 0x14, 0x03, 0x00, 0x00, 0xbc, 0x02, 0x00, 0x00,
  0x80, 0x02, 0x00, 0x00, 0x28, 0x02, 0x00, 0x00, 0xd4, 0x01, 0x00, 0x00,
  0x88, 0x01, 0x00, 0x00, 0xf8, 0x00, 0x00, 0x00, 0x60, 0x00, 0x00, 0x00,
  0x04, 0x00, 0x00, 0x00, 0xd2, 0xfc, 0xff, 0xff, 0x00, 0x00, 0x00, 0x01,
  0x14, 0x00, 0x00, 0x00, 0x1c, 0x00, 0x00, 0x00, 0x1c, 0x00, 0x00, 0x00,
  0x0a, 0x00, 0x00, 0x00, 0x34, 0x00, 0x00, 0x00, 0x02, 0x00, 0x00, 0x00,
  0xff, 0xff, 0xff, 0xff, 0x01, 0x00, 0x00, 0x00, 0xbc, 0xfc, 0xff, 0xff,
  0x1b, 0x00, 0x00, 0x00, 0x53, 0x74, 0x61, 0x74, 0x65, 0x66, 0x75, 0x6c,
  0x50, 0x61, 0x72, 0x74, 0x69, 0x74, 0x69, 0x6f, 0x6e, 0x65, 0x64, 0x43,
  0x61, 0x6c, 0x6c, 0x5f, 0x31, 0x3a, 0x30, 0x00, 0x02, 0x00, 0x00, 0x00,
  0x01, 0x00, 0x00, 0x00, 0x01, 0x00, 0x00, 0x00, 0x2a, 0xfd, 0xff, 0xff,
  0x00, 0x00, 0x00, 0x01, 0x14, 0x00, 0x00, 0x00, 0x1c, 0x00, 0x00, 0x00,
  0x1c, 0x00, 0x00, 0x00, 0x09, 0x00, 0x00, 0x00, 0x70, 0x00, 0x00, 0x00,
  0x02, 0x00, 0x00, 0x00, 0xff, 0xff, 0xff, 0xff, 0x10, 0x00, 0x00, 0x00,
  0x14, 0xfd, 0xff, 0xff, 0x54, 0x00, 0x00, 0x00, 0x73, 0x65, 0x71, 0x75,
  0x65, 0x6e, 0x74, 0x69, 0x61, 0x6c, 0x5f, 0x31, 0x2f, 0x64, 0x65, 0x6e,
  0x73, 0x65, 0x5f, 0x31, 0x5f, 0x32, 0x2f, 0x4d, 0x61, 0x74, 0x4d, 0x75,
  0x6c, 0x3b, 0x73, 0x65, 0x71, 0x75, 0x65, 0x6e, 0x74, 0x69, 0x61, 0x6c,
  0x5f, 0x31, 0x2f, 0x64, 0x65, 0x6e, 0x73, 0x65, 0x5f, 0x31, 0x5f, 0x32,
  0x2f, 0x52, 0x65, 0x6c, 0x75, 0x3b, 0x73, 0x65, 0x71, 0x75, 0x65, 0x6e,
  0x74, 0x69, 0x61, 0x6c, 0x5f, 0x31, 0x2f, 0x64, 0x65, 0x6e, 0x73, 0x65,
  0x5f, 0x31, 0x5f, 0x32, 0x2f, 0x41, 0x64, 0x64, 0x00, 0x00, 0x00, 0x00,
  0x02, 0x00, 0x00, 0x00, 0x01, 0x00, 0x00, 0x00, 0x10, 0x00, 0x00, 0x00,
  0xbe, 0xfd, 0xff, 0xff, 0x00, 0x00, 0x00, 0x01, 0x14, 0x00, 0x00, 0x00,
  0x1c, 0x00, 0x00, 0x00, 0x1c, 0x00, 0x00, 0x00, 0x08, 0x00, 0x00, 0x00,
  0x68, 0x00, 0x00, 0x00, 0x02, 0x00, 0x00, 0x00, 0xff, 0xff, 0xff, 0xff,
  0x10, 0x00, 0x00, 0x00, 0xa8, 0xfd, 0xff, 0xff, 0x4e, 0x00, 0x00, 0x00,
  0x73, 0x65, 0x71, 0x75, 0x65, 0x6e, 0x74, 0x69, 0x61, 0x6c, 0x5f, 0x31,
  0x2f, 0x64, 0x65, 0x6e, 0x73, 0x65, 0x5f, 0x31, 0x2f, 0x4d, 0x61, 0x74,
  0x4d, 0x75, 0x6c, 0x3b, 0x73, 0x65, 0x71, 0x75, 0x65, 0x6e, 0x74, 0x69,
  0x61, 0x6c, 0x5f, 0x31, 0x2f, 0x64, 0x65, 0x6e, 0x73, 0x65, 0x5f, 0x31,
  0x2f, 0x52, 0x65, 0x6c, 0x75, 0x3b, 0x73, 0x65, 0x71, 0x75, 0x65, 0x6e,
  0x74, 0x69, 0x61, 0x6c, 0x5f, 0x31, 0x2f, 0x64, 0x65, 0x6e, 0x73, 0x65,
  0x5f, 0x31, 0x2f, 0x41, 0x64, 0x64, 0x00, 0x00, 0x02, 0x00, 0x00, 0x00,
  0x01, 0x00, 0x00, 0x00, 0x10, 0x00, 0x00, 0x00, 0x9e, 0xfe, 0xff, 0xff,
  0x00, 0x00, 0x00, 0x01, 0x10, 0x00, 0x00, 0x00, 0x10, 0x00, 0x00, 0x00,
  0x07, 0x00, 0x00, 0x00, 0x28, 0x00, 0x00, 0x00, 0x24, 0xfe, 0xff, 0xff,
  0x1b, 0x00, 0x00, 0x00, 0x73, 0x65, 0x71, 0x75, 0x65, 0x6e, 0x74, 0x69,
  0x61, 0x6c, 0x5f, 0x31, 0x2f, 0x64, 0x65, 0x6e, 0x73, 0x65, 0x5f, 0x31,
  0x2f, 0x4d, 0x61, 0x74, 0x4d, 0x75, 0x6c, 0x00, 0x02, 0x00, 0x00, 0x00,
  0x10, 0x00, 0x00, 0x00, 0x01, 0x00, 0x00, 0x00, 0xe6, 0xfe, 0xff, 0xff,
  0x00, 0x00, 0x00, 0x01, 0x10, 0x00, 0x00, 0x00, 0x10, 0x00, 0x00, 0x00,
  0x06, 0x00, 0x00, 0x00, 0x34, 0x00, 0x00, 0x00, 0x6c, 0xfe, 0xff, 0xff,
  0x27, 0x00, 0x00, 0x00, 0x73, 0x65, 0x71, 0x75, 0x65, 0x6e, 0x74, 0x69,
  0x61, 0x6c, 0x5f, 0x31, 0x2f, 0x64, 0x65, 0x6e, 0x73, 0x65, 0x5f, 0x31,
  0x2f, 0x41, 0x64, 0x64, 0x2f, 0x52, 0x65, 0x61, 0x64, 0x56, 0x61, 0x72,
  0x69, 0x61, 0x62, 0x6c, 0x65, 0x4f, 0x70, 0x00, 0x01, 0x00, 0x00, 0x00,
  0x10, 0x00, 0x00, 0x00, 0x36, 0xff, 0xff, 0xff, 0x00, 0x00, 0x00, 0x01,
  0x10, 0x00, 0x00, 0x00, 0x10, 0x00, 0x00, 0x00, 0x05, 0x00, 0x00, 0x00,
  0x38, 0x00, 0x00, 0x00, 0xbc, 0xfe, 0xff, 0xff, 0x29, 0x00, 0x00, 0x00,
  0x73, 0x65, 0x71, 0x75, 0x65, 0x6e, 0x74, 0x69, 0x61, 0x6c, 0x5f, 0x31,
  0x2f, 0x64, 0x65, 0x6e, 0x73, 0x65, 0x5f, 0x31, 0x5f, 0x32, 0x2f, 0x41,
  0x64, 0x64, 0x2f, 0x52, 0x65, 0x61, 0x64, 0x56, 0x61, 0x72, 0x69, 0x61,
  0x62, 0x6c, 0x65, 0x4f, 0x70, 0x00, 0x00, 0x00, 0x01, 0x00, 0x00, 0x00,
  0x10, 0x00, 0x00, 0x00, 0x8a, 0xff, 0xff, 0xff, 0x00, 0x00, 0x00, 0x01,
  0x10, 0x00, 0x00, 0x00, 0x10, 0x00, 0x00, 0x00, 0x04, 0x00, 0x00, 0x00,
  0x1c, 0x00, 0x00, 0x00, 0x10, 0xff, 0xff, 0xff, 0x0f, 0x00, 0x00, 0x00,
  0x61, 0x72, 0x69, 0x74, 0x68, 0x2e, 0x63, 0x6f, 0x6e, 0x73, 0x74, 0x61,
  0x6e, 0x74, 0x32, 0x00, 0x01, 0x00, 0x00, 0x00, 0x01, 0x00, 0x00, 0x00,
  0xc2, 0xff, 0xff, 0xff, 0x00, 0x00, 0x00, 0x01, 0x10, 0x00, 0x00, 0x00,
  0x10, 0x00, 0x00, 0x00, 0x03, 0x00, 0x00, 0x00, 0x1c, 0x00, 0x00, 0x00,
  0x48, 0xff, 0xff, 0xff, 0x0f, 0x00, 0x00, 0x00, 0x61, 0x72, 0x69, 0x74,
  0x68, 0x2e, 0x63, 0x6f, 0x6e, 0x73, 0x74, 0x61, 0x6e, 0x74, 0x31, 0x00,
  0x02, 0x00, 0x00, 0x00, 0x10, 0x00, 0x00, 0x00, 0x10, 0x00, 0x00, 0x00,
  0x00, 0x00, 0x16, 0x00, 0x18, 0x00, 0x14, 0x00, 0x00, 0x00, 0x10, 0x00,
  0x0c, 0x00, 0x08, 0x00, 0x00, 0x00, 0x00, 0x00, 0x00, 0x00, 0x07, 0x00,
  0x16, 0x00, 0x00, 0x00, 0x00, 0x00, 0x00, 0x01, 0x10, 0x00, 0x00, 0x00,
  0x10, 0x00, 0x00, 0x00, 0x02, 0x00, 0x00, 0x00, 0x1c, 0x00, 0x00, 0x00,
  0x9c, 0xff, 0xff, 0xff, 0x0e, 0x00, 0x00, 0x00, 0x61, 0x72, 0x69, 0x74,
  0x68, 0x2e, 0x63, 0x6f, 0x6e, 0x73, 0x74, 0x61, 0x6e, 0x74, 0x00, 0x00,
  0x02, 0x00, 0x00, 0x00, 0x01, 0x00, 0x00, 0x00, 0x10, 0x00, 0x00, 0x00,
  0x00, 0x00, 0x16, 0x00, 0x1c, 0x00, 0x18, 0x00, 0x00, 0x00, 0x14, 0x00,
  0x10, 0x00, 0x0c, 0x00, 0x00, 0x00, 0x00, 0x00, 0x08, 0x00, 0x07, 0x00,
  0x16, 0x00, 0x00, 0x00, 0x00, 0x00, 0x00, 0x01, 0x14, 0x00, 0x00, 0x00,
  0x20, 0x00, 0x00, 0x00, 0x20, 0x00, 0x00, 0x00, 0x01, 0x00, 0x00, 0x00,
  0x3c, 0x00, 0x00, 0x00, 0x02, 0x00, 0x00, 0x00, 0xff, 0xff, 0xff, 0xff,
  0x01, 0x00, 0x00, 0x00, 0x04, 0x00, 0x04, 0x00, 0x04, 0x00, 0x00, 0x00,
  0x1e, 0x00, 0x00, 0x00, 0x73, 0x65, 0x72, 0x76, 0x69, 0x6e, 0x67, 0x5f,
  0x64, 0x65, 0x66, 0x61, 0x75, 0x6c, 0x74, 0x5f, 0x6b, 0x65, 0x72, 0x61,
  0x73, 0x5f, 0x74, 0x65, 0x6e, 0x73, 0x6f, 0x72, 0x3a, 0x30, 0x00, 0x00,
  0x02, 0x00, 0x00, 0x00, 0x01, 0x00, 0x00, 0x00, 0x01, 0x00, 0x00, 0x00,
  0x01, 0x00, 0x00, 0x00, 0x10, 0x00, 0x00, 0x00, 0x0c, 0x00, 0x0c, 0x00,
  0x0b, 0x00, 0x00, 0x00, 0x00, 0x00, 0x04, 0x00, 0x0c, 0x00, 0x00, 0x00,
  0x09, 0x00, 0x00, 0x00, 0x00, 0x00, 0x00, 0x09
};

#endif //SINE_MODEL_H